unsigned char eye_movement_model_tflite[] = {
  0x1c, 0x00, 0x00, 0x00, 0x54, 0x46, 0x4c, 0x33, 0x14, 0x00, 0x20, 0x00,
  0x1c, 0x00, 0x18, 0x00, 0x14, 0x00, 0x10, 0x00, 0x0c, 0x00, 0x00, 0x00,
  0x08, 0x00, 0x04, 0x00, 0x14, 0x00, 0x00, 0x00, 0x1c, 0x00, 0x00, 0x00,
  0x98, 0x00, 0x00, 0x00, 0xf0, 0x00, 0x00, 0x00, 0x40, 0x05, 0x00, 0x00,
  0x50, 0x05, 0x00, 0x00, 0xf4, 0x0a, 0x00, 0x00, 0x03, 0x00, 0x00, 0x00,
  0x01, 0x00, 0x00, 0x00, 0x10, 0x00, 0x00, 0x00, 0x00, 0x00, 0x0a, 0x00,
  0x10, 0x00, 0x0c, 0x00, 0x08, 0x00, 0x04, 0x00, 0x0a, 0x00, 0x00, 0x00,
  0x0c, 0x00, 0x00, 0x00, 0x1c, 0x00, 0x00, 0x00, 0x3c, 0x00, 0x00, 0x00,
  0x0f, 0x00, 0x00, 0x00, 0x73, 0x65, 0x72, 0x76, 0x69, 0x6e, 0x67, 0x5f,
  0x64, 0x65, 0x66, 0x61, 0x75, 0x6c, 0x74, 0x00, 0x01, 0x00, 0x00, 0x00,
  0x04, 0x00, 0x00, 0x00, 0x90, 0xff, 0xff, 0xff, 0x0a, 0x00, 0x00, 0x00,
  0x04, 0x00, 0x00, 0x00, 0x08, 0x00, 0x00, 0x00, 0x6f, 0x75, 0x74, 0x70,
  0x75, 0x74, 0x5f, 0x30, 0x00, 0x00, 0x00, 0x00, 0x01, 0x00, 0x00, 0x00,
  0x04, 0x00, 0x00, 0x00, 0xa6, 0xfa, 0xff, 0xff, 0x04, 0x00, 0x00, 0x00,
  0x0e, 0x00, 0x00, 0x00, 0x6b, 0x65, 0x72, 0x61, 0x73, 0x5f, 0x74, 0x65,
  0x6e, 0x73, 0x6f, 0x72, 0x5f, 0x34, 0x00, 0x00, 0x02, 0x00, 0x00, 0x00,
  0x34, 0x00, 0x00, 0x00, 0x04, 0x00, 0x00, 0x00, 0xdc, 0xff, 0xff, 0xff,
  0x0d, 0x00, 0x00, 0x00, 0x04, 0x00, 0x00, 0x00, 0x13, 0x00, 0x00, 0x00,
  0x43, 0x4f, 0x4e, 0x56, 0x45, 0x52, 0x53, 0x49, 0x4f, 0x4e, 0x5f, 0x4d,
  0x45, 0x54, 0x41, 0x44, 0x41, 0x54, 0x41, 0x00, 0x08, 0x00, 0x0c, 0x00,
  0x08, 0x00, 0x04, 0x00, 0x08, 0x00, 0x00, 0x00, 0x0c, 0x00, 0x00, 0x00,
  0x04, 0x00, 0x00, 0x00, 0x13, 0x00, 0x00, 0x00, 0x6d, 0x69, 0x6e, 0x5f,
  0x72, 0x75, 0x6e, 0x74, 0x69, 0x6d, 0x65, 0x5f, 0x76, 0x65, 0x72, 0x73,
  0x69, 0x6f, 0x6e, 0x00, 0x0e, 0x00, 0x00, 0x00, 0x4c, 0x04, 0x00, 0x00,
  0x44, 0x04, 0x00, 0x00, 0xb4, 0x03, 0x00, 0x00, 0xa4, 0x01, 0x00, 0x00,
  0x84, 0x01, 0x00, 0x00, 0x54, 0x01, 0x00, 0x00, 0x04, 0x01, 0x00, 0x00,
  0xb4, 0x00, 0x00, 0x00, 0xac, 0x00, 0x00, 0x00, 0xa4, 0x00, 0x00, 0x00,
  0x9c, 0x00, 0x00, 0x00, 0x94, 0x00, 0x00, 0x00, 0x74, 0x00, 0x00, 0x00,
  0x04, 0x00, 0x00, 0x00, 0x5a, 0xfb, 0xff, 0xff, 0x04, 0x00, 0x00, 0x00,
  0x60, 0x00, 0x00, 0x00, 0x10, 0x00, 0x00, 0x00, 0x00, 0x00, 0x00, 0x00,
  0x08, 0x00, 0x0e, 0x00, 0x08, 0x00, 0x04, 0x00, 0x08, 0x00, 0x00, 0x00,
  0x10, 0x00, 0x00, 0x00, 0x24, 0x00, 0x00, 0x00, 0x00, 0x00, 0x06, 0x00,
  0x08, 0x00, 0x04, 0x00, 0x06, 0x00, 0x00, 0x00, 0x04, 0x00, 0x00, 0x00,
  0x00, 0x00, 0x00, 0x00, 0x0c, 0x00, 0x18, 0x00, 0x14, 0x00, 0x10, 0x00,
  0x0c, 0x00, 0x04, 0x00, 0x0c, 0x00, 0x00, 0x00, 0x81, 0x33, 0x3b, 0x5b,
  0x48, 0x2c, 0x11, 0x65, 0x02, 0x00, 0x00, 0x00, 0x02, 0x00, 0x00, 0x00,
  0x04, 0x00, 0x00, 0x00, 0x06, 0x00, 0x00, 0x00, 0x32, 0x2e, 0x31, 0x37,
  0x2e, 0x31, 0x00, 0x00, 0xc6, 0xfb, 0xff, 0xff, 0x04, 0x00, 0x00, 0x00,
  0x10, 0x00, 0x00, 0x00, 0x31, 0x2e, 0x35, 0x2e, 0x30, 0x00, 0x00, 0x00,
  0x00, 0x00, 0x00, 0x00, 0x00, 0x00, 0x00, 0x00, 0xf0, 0xf6, 0xff, 0xff,
  0xf4, 0xf6, 0xff, 0xff, 0xf8, 0xf6, 0xff, 0xff, 0xfc, 0xf6, 0xff, 0xff,
  0xf2, 0xfb, 0xff, 0xff, 0x04, 0x00, 0x00, 0x00, 0x40, 0x00, 0x00, 0x00,
  0xbd, 0xe6, 0xaa, 0x3f, 0xfc, 0x39, 0xc3, 0x3f, 0x0d, 0xf1, 0x49, 0x40,
  0x60, 0x5f, 0x8d, 0xbe, 0xd0, 0x9c, 0xda, 0x3f, 0x90, 0x5d, 0x11, 0xbd,
  0x78, 0x39, 0xab, 0x3f, 0x58, 0x60, 0xca, 0xbe, 0xbe, 0x8b, 0xf8, 0xbe,
  0xbd, 0x45, 0xf5, 0xbe, 0xbc, 0x31, 0x5d, 0xbe, 0xc0, 0xe0, 0x70, 0x3f,
  0x90, 0xb0, 0xb0, 0x3f, 0x30, 0xe7, 0x77, 0xbd, 0x6e, 0x19, 0x5e, 0xbe,
  0xf4, 0x3b, 0xf1, 0xbd, 0x3e, 0xfc, 0xff, 0xff, 0x04, 0x00, 0x00, 0x00,
  0x40, 0x00, 0x00, 0x00, 0x44, 0xfa, 0x1b, 0xbf, 0x62, 0x1e, 0x32, 0xbf,
  0xdd, 0xab, 0xc7, 0x3e, 0x00, 0x00, 0x00, 0x00, 0x7b, 0x85, 0x30, 0xbf,
  0x00, 0x00, 0x00, 0x00, 0xbf, 0x43, 0x1c, 0xbf, 0x00, 0x00, 0x00, 0x00,
  0x4d, 0x23, 0xa6, 0x3f, 0x00, 0x00, 0x00, 0x00, 0x00, 0x00, 0x00, 0x00,
  0x68, 0xde, 0x9f, 0x3f, 0x0a, 0x3e, 0x21, 0xbf, 0x00, 0x00, 0x00, 0x00,
  0x00, 0x00, 0x00, 0x00, 0x00, 0x00, 0x00, 0x00, 0x8a, 0xfc, 0xff, 0xff,
  0x04, 0x00, 0x00, 0x00, 0x20, 0x00, 0x00, 0x00, 0xed, 0xb0, 0x05, 0xbe,
  0x00, 0x00, 0x00, 0x00, 0x6d, 0xcb, 0x44, 0xbd, 0x00, 0x00, 0x00, 0x00,
  0xc6, 0x7f, 0x02, 0xbf, 0x1c, 0x99, 0xac, 0xbb, 0xcd, 0x2d, 0xf2, 0xbe,
  0xb6, 0x16, 0xa1, 0x3f, 0xb6, 0xfc, 0xff, 0xff, 0x04, 0x00, 0x00, 0x00,
  0x10, 0x00, 0x00, 0x00, 0xbd, 0x5f, 0xf3, 0xbe, 0x22, 0x26, 0xa2, 0xbe,
  0x0f, 0x52, 0xf8, 0x3f, 0xb0, 0x24, 0x41, 0xbe, 0xd2, 0xfc, 0xff, 0xff,
  0x04, 0x00, 0x00, 0x00, 0x00, 0x02, 0x00, 0x00, 0x3a, 0xe0, 0xff, 0xbe,
  0x63, 0xc7, 0xa7, 0xbd, 0x77, 0x88, 0xed, 0xbe, 0x60, 0x0d, 0xc8, 0xbe,
  0x42, 0x8e, 0x53, 0x3d, 0xb0, 0x63, 0x9a, 0x3d, 0xf8, 0x6b, 0xd3, 0xbe,
  0x78, 0x50, 0x10, 0x3e, 0x9e, 0xbb, 0x9f, 0x3e, 0xe0, 0x9c, 0x37, 0xbd,
  0x50, 0x30, 0xb9, 0x3e, 0xc4, 0xb0, 0x0f, 0xbe, 0x70, 0xe8, 0xc1, 0x3e,
  0x40, 0x9a, 0xa9, 0xbc, 0x00, 0x34, 0xee, 0xba, 0x28, 0xc2, 0x4b, 0x3e,
  0xc4, 0xb2, 0xd2, 0xbe, 0xf8, 0x51, 0xfb, 0xbe, 0x80, 0x2d, 0xd6, 0xbd,
  0xb8, 0x44, 0xe3, 0xbe, 0xac, 0x2e, 0x97, 0xbe, 0x98, 0x1e, 0xfc, 0x3e,
  0x60, 0x99, 0xf6, 0xbe, 0x10, 0x2a, 0x97, 0x3d, 0xd0, 0xe9, 0x43, 0xbe,
  0x20, 0x75, 0xcc, 0xbd, 0xf0, 0x37, 0x8c, 0x3d, 0x80, 0xda, 0x6e, 0xbd,
  0xa8, 0x2c, 0xa7, 0x3e, 0x68, 0xba, 0xe6, 0x3e, 0xc0, 0x46, 0xe9, 0x3d,
  0x20, 0x3a, 0xca, 0x3e, 0x29, 0x98, 0xdc, 0x3e, 0xfe, 0xf3, 0x2c, 0xbe,
  0x10, 0x71, 0xfc, 0x3d, 0xac, 0x07, 0xb8, 0xbe, 0x73, 0xa6, 0xc8, 0xbe,
  0x00, 0x48, 0xae, 0xbb, 0x69, 0x29, 0xc8, 0x3e, 0x60, 0x5b, 0xaf, 0x3d,
  0x39, 0xa8, 0xb9, 0x3e, 0x58, 0x0c, 0xad, 0xbe, 0xf8, 0x8e, 0x2c, 0xbe,
  0x63, 0x3a, 0x0b, 0xbf, 0xf7, 0xf1, 0x80, 0x3e, 0x38, 0xd8, 0x38, 0xbe,
  0xd0, 0x40, 0xf1, 0xbe, 0xb4, 0x15, 0x93, 0xbe, 0x8c, 0x4a, 0xd2, 0xbe,
  0x70, 0x34, 0x08, 0xbe, 0xfc, 0xbc, 0x99, 0xbe, 0xac, 0xae, 0xf0, 0xbe,
  0x38, 0x7e, 0x05, 0xbe, 0x70, 0x8c, 0x82, 0x3e, 0x50, 0x09, 0x5b, 0xbe,
  0x40, 0x3c, 0x92, 0x3d, 0xe8, 0x13, 0x51, 0xbe, 0xc0, 0xfb, 0xc2, 0x3c,
  0x20, 0xb9, 0x12, 0x3e, 0x70, 0xfc, 0xe4, 0x3d, 0x20, 0x5a, 0x1a, 0xbe,
  0xd0, 0x63, 0xae, 0xbd, 0x2c, 0xc7, 0xca, 0xbe, 0xd8, 0x82, 0xe9, 0xbe,
  0xcd, 0x8d, 0xcf, 0x40, 0x6c, 0x00, 0x8b, 0x40, 0x0c, 0x7c, 0x56, 0x3f,
  0x4c, 0x6e, 0xe7, 0x3e, 0x7e, 0x49, 0x09, 0x40, 0xc0, 0x39, 0x54, 0x3e,
  0x83, 0xe9, 0xca, 0x40, 0xd8, 0x09, 0xe7, 0xbe, 0x5b, 0x84, 0xde, 0xbe,
  0x4c, 0x33, 0x9b, 0x3e, 0x60, 0xde, 0x52, 0x3e, 0x5b, 0xaa, 0xc8, 0x3e,
  0x0c, 0x09, 0xcb, 0x40, 0x94, 0x44, 0x9f, 0x3e, 0x80, 0x9e, 0x6c, 0xbd,
  0x60, 0x23, 0x64, 0x3e, 0xa0, 0xdc, 0xd6, 0xbe, 0x1f, 0x46, 0xab, 0x3e,
  0xe0, 0xa2, 0xd1, 0x3d, 0x18, 0x50, 0xa8, 0xbe, 0x7e, 0x22, 0x40, 0xbe,
  0xf4, 0x64, 0xc4, 0x3e, 0x80, 0x92, 0x41, 0xbc, 0xbc, 0x44, 0xf5, 0xbe,
  0x0c, 0x34, 0x2a, 0xbc, 0x90, 0x03, 0xa8, 0xbe, 0x78, 0xda, 0x15, 0xbe,
  0xa2, 0x1c, 0xbe, 0xbe, 0x04, 0x4a, 0x81, 0x3e, 0x40, 0xe0, 0xc6, 0x3e,
  0x50, 0x8f, 0x16, 0x3e, 0xb0, 0x16, 0x37, 0x3e, 0xe7, 0xa1, 0x06, 0x41,
  0x60, 0xbe, 0xa8, 0x40, 0xe5, 0x3a, 0xdc, 0x3f, 0x80, 0xd6, 0x57, 0x3e,
  0xe4, 0x43, 0x4e, 0x40, 0x10, 0x61, 0x7b, 0xbe, 0xae, 0xa9, 0x0a, 0x41,
  0x7c, 0x51, 0xdb, 0x3e, 0x9d, 0x91, 0x3c, 0xbf, 0xe0, 0x2d, 0xd7, 0xbe,
  0x00, 0xea, 0x12, 0x3e, 0x3e, 0x52, 0x72, 0x3e, 0xa4, 0x63, 0x09, 0x41,
  0x9c, 0xe2, 0xea, 0x3e, 0x7c, 0xd3, 0xe8, 0x3e, 0x40, 0xe3, 0x09, 0xbe,
  0x11, 0x63, 0x97, 0xc0, 0xdd, 0x17, 0x32, 0xc0, 0x24, 0xe5, 0x5e, 0x3f,
  0xf0, 0x8c, 0xf9, 0xbd, 0x8c, 0x30, 0x0c, 0xc0, 0x18, 0x8a, 0xa9, 0x3e,
  0xd1, 0xb5, 0x8c, 0xc0, 0x00, 0xb0, 0x9e, 0x39, 0x98, 0xfd, 0xca, 0x3f,
  0xf0, 0x63, 0xc3, 0xbe, 0x24, 0x06, 0xd4, 0xbe, 0x7d, 0x1b, 0x94, 0x3f,
  0xb6, 0x3f, 0x8c, 0xc0, 0x00, 0x5f, 0xf3, 0xbb, 0xec, 0x23, 0xcb, 0x3e,
  0x60, 0x22, 0x4b, 0xbe, 0xde, 0xfe, 0xff, 0xff, 0x04, 0x00, 0x00, 0x00,
  0x80, 0x00, 0x00, 0x00, 0x25, 0x91, 0x90, 0xbe, 0x42, 0x2e, 0x9e, 0x3e,
  0x0c, 0x81, 0xad, 0xbe, 0x50, 0x24, 0x4e, 0x3e, 0xda, 0xed, 0xa3, 0x3f,
  0x64, 0x79, 0x72, 0xbe, 0x3c, 0xa6, 0x0b, 0x40, 0xf1, 0x5e, 0xd2, 0xc0,
  0x9e, 0x06, 0x13, 0xbf, 0xcc, 0x7f, 0x76, 0xbe, 0xe9, 0x1d, 0xc6, 0x3d,
  0x2b, 0x29, 0xa0, 0xbe, 0x55, 0x2a, 0xc5, 0x3f, 0x36, 0xff, 0xc5, 0xbe,
  0xa1, 0xc0, 0xd2, 0x3f, 0xa6, 0x75, 0xb3, 0xbf, 0x81, 0x97, 0xbd, 0xbe,
  0x00, 0xc6, 0x17, 0xbb, 0xd3, 0x5f, 0x05, 0xbf, 0x67, 0x66, 0x1f, 0xbf,
  0x18, 0x27, 0xb2, 0xc0, 0x14, 0x4d, 0x20, 0xbf, 0x12, 0xe0, 0x1b, 0xc1,
  0xde, 0x44, 0x05, 0x40, 0x79, 0xae, 0x19, 0x3e, 0xf2, 0xa0, 0x02, 0xbf,
  0x64, 0xdf, 0xe4, 0x3d, 0xc0, 0x29, 0x68, 0x3d, 0xbe, 0x1e, 0xba, 0xbf,
  0xc2, 0x8e, 0x0f, 0xbf, 0x59, 0xe6, 0x1c, 0xc0, 0x07, 0xaa, 0xe6, 0x3f,
  0x78, 0xfa, 0xff, 0xff, 0x7c, 0xfa, 0xff, 0xff, 0x0f, 0x00, 0x00, 0x00,
  0x4d, 0x4c, 0x49, 0x52, 0x20, 0x43, 0x6f, 0x6e, 0x76, 0x65, 0x72, 0x74,
  0x65, 0x64, 0x2e, 0x00, 0x01, 0x00, 0x00, 0x00, 0x14, 0x00, 0x00, 0x00,
  0x00, 0x00, 0x0e, 0x00, 0x18, 0x00, 0x14, 0x00, 0x10, 0x00, 0x0c, 0x00,
  0x08, 0x00, 0x04, 0x00, 0x0e, 0x00, 0x00, 0x00, 0x14, 0x00, 0x00, 0x00,
  0x1c, 0x00, 0x00, 0x00, 0x24, 0x01, 0x00, 0x00, 0x28, 0x01, 0x00, 0x00,
  0x2c, 0x01, 0x00, 0x00, 0x04, 0x00, 0x00, 0x00, 0x6d, 0x61, 0x69, 0x6e,
  0x00, 0x00, 0x00, 0x00, 0x04, 0x00, 0x00, 0x00, 0xcc, 0x00, 0x00, 0x00,
  0x84, 0x00, 0x00, 0x00, 0x50, 0x00, 0x00, 0x00, 0x14, 0x00, 0x00, 0x00,
  0x00, 0x00, 0x0e, 0x00, 0x1a, 0x00, 0x14, 0x00, 0x10, 0x00, 0x0c, 0x00,
  0x0b, 0x00, 0x04, 0x00, 0x0e, 0x00, 0x00, 0x00, 0x1c, 0x00, 0x00, 0x00,
  0x00, 0x00, 0x00, 0x09, 0x1c, 0x00, 0x00, 0x00, 0x20, 0x00, 0x00, 0x00,
  0x01, 0x00, 0x00, 0x00, 0x00, 0x00, 0x06, 0x00, 0x08, 0x00, 0x04, 0x00,
  0x06, 0x00, 0x00, 0x00, 0x00, 0x00, 0x80, 0x3f, 0x01, 0x00, 0x00, 0x00,
  0x0a, 0x00, 0x00, 0x00, 0x01, 0x00, 0x00, 0x00, 0x09, 0x00, 0x00, 0x00,
  0x9a, 0xff, 0xff, 0xff, 0x10, 0x00, 0x00, 0x00, 0x00, 0x00, 0x00, 0x08,
  0x0c, 0x00, 0x00, 0x00, 0x10, 0x00, 0x00, 0x00, 0x40, 0xfb, 0xff, 0xff,
  0x01, 0x00, 0x00, 0x00, 0x09, 0x00, 0x00, 0x00, 0x03, 0x00, 0x00, 0x00,
  0x08, 0x00, 0x00, 0x00, 0x01, 0x00, 0x00, 0x00, 0x03, 0x00, 0x00, 0x00,
  0xca, 0xff, 0xff, 0xff, 0x10, 0x00, 0x00, 0x00, 0x00, 0x00, 0x00, 0x08,
  0x10, 0x00, 0x00, 0x00, 0x14, 0x00, 0x00, 0x00, 0xba, 0xff, 0xff, 0xff,
  0x00, 0x00, 0x00, 0x01, 0x01, 0x00, 0x00, 0x00, 0x08, 0x00, 0x00, 0x00,
  0x03, 0x00, 0x00, 0x00, 0x07, 0x00, 0x00, 0x00, 0x02, 0x00, 0x00, 0x00,
  0x04, 0x00, 0x00, 0x00, 0x00, 0x00, 0x0e, 0x00, 0x16, 0x00, 0x00, 0x00,
  0x10, 0x00, 0x0c, 0x00, 0x0b, 0x00, 0x04, 0x00, 0x0e, 0x00, 0x00, 0x00,
  0x18, 0x00, 0x00, 0x00, 0x00, 0x00, 0x00, 0x08, 0x18, 0x00, 0x00, 0x00,
  0x1c, 0x00, 0x00, 0x00, 0x00, 0x00, 0x06, 0x00, 0x08, 0x00, 0x07, 0x00,
  0x06, 0x00, 0x00, 0x00, 0x00, 0x00, 0x00, 0x01, 0x01, 0x00, 0x00, 0x00,
  0x07, 0x00, 0x00, 0x00, 0x03, 0x00, 0x00, 0x00, 0x00, 0x00, 0x00, 0x00,
  0x06, 0x00, 0x00, 0x00, 0x05, 0x00, 0x00, 0x00, 0x01, 0x00, 0x00, 0x00,
  0x0a, 0x00, 0x00, 0x00, 0x01, 0x00, 0x00, 0x00, 0x00, 0x00, 0x00, 0x00,
  0x0b, 0x00, 0x00, 0x00, 0xe8, 0x03, 0x00, 0x00, 0x90, 0x03, 0x00, 0x00,
  0x38, 0x03, 0x00, 0x00, 0xfc, 0x02, 0x00, 0x00, 0xc0, 0x02, 0x00, 0x00,
  0x68, 0x02, 0x00, 0x00, 0x18, 0x02, 0x00, 0x00, 0x7c, 0x01, 0x00, 0x00,
  0xe0, 0x00, 0x00, 0x00, 0x60, 0x00, 0x00, 0x00, 0x04, 0x00, 0x00, 0x00,
  0x5a, 0xfc, 0xff, 0xff, 0x00, 0x00, 0x00, 0x01, 0x14, 0x00, 0x00, 0x00,
  0x1c, 0x00, 0x00, 0x00, 0x1c, 0x00, 0x00, 0x00, 0x0b, 0x00, 0x00, 0x00,
  0x34, 0x00, 0x00, 0x00, 0x02, 0x00, 0x00, 0x00, 0xff, 0xff, 0xff, 0xff,
  0x04, 0x00, 0x00, 0x00, 0x44, 0xfc, 0xff, 0xff, 0x1b, 0x00, 0x00, 0x00,
  0x53, 0x74, 0x61, 0x74, 0x65, 0x66, 0x75, 0x6c, 0x50, 0x61, 0x72, 0x74,
  0x69, 0x74, 0x69, 0x6f, 0x6e, 0x65, 0x64, 0x43, 0x61, 0x6c, 0x6c, 0x5f,
  0x31, 0x3a, 0x30, 0x00, 0x02, 0x00, 0x00, 0x00, 0x01, 0x00, 0x00, 0x00,
  0x04, 0x00, 0x00, 0x00, 0xb2, 0xfc, 0xff, 0xff, 0x00, 0x00, 0x00, 0x01,
  0x14, 0x00, 0x00, 0x00, 0x1c, 0x00, 0x00, 0x00, 0x1c, 0x00, 0x00, 0x00,
  0x0a, 0x00, 0x00, 0x00, 0x58, 0x00, 0x00, 0x00, 0x02, 0x00, 0x00, 0x00,
  0xff, 0xff, 0xff, 0xff, 0x04, 0x00, 0x00, 0x00, 0x9c, 0xfc, 0xff, 0xff,
  0x3c, 0x00, 0x00, 0x00, 0x73, 0x65, 0x71, 0x75, 0x65, 0x6e, 0x74, 0x69,
  0x61, 0x6c, 0x5f, 0x31, 0x5f, 0x31, 0x2f, 0x64, 0x65, 0x6e, 0x73, 0x65,
  0x5f, 0x35, 0x5f, 0x31, 0x2f, 0x4d, 0x61, 0x74, 0x4d, 0x75, 0x6c, 0x3b,
  0x73, 0x65, 0x71, 0x75, 0x65, 0x6e, 0x74, 0x69, 0x61, 0x6c, 0x5f, 0x31,
  0x5f, 0x31, 0x2f, 0x64, 0x65, 0x6e, 0x73, 0x65, 0x5f, 0x35, 0x5f, 0x31,
  0x2f, 0x41, 0x64, 0x64, 0x00, 0x00, 0x00, 0x00, 0x02, 0x00, 0x00, 0x00,
  0x01, 0x00, 0x00, 0x00, 0x04, 0x00, 0x00, 0x00, 0x2e, 0xfd, 0xff, 0xff,
  0x00, 0x00, 0x00, 0x01, 0x14, 0x00, 0x00, 0x00, 0x1c, 0x00, 0x00, 0x00,
  0x1c, 0x00, 0x00, 0x00, 0x09, 0x00, 0x00, 0x00, 0x74, 0x00, 0x00, 0x00,
  0x02, 0x00, 0x00, 0x00, 0xff, 0xff, 0xff, 0xff, 0x08, 0x00, 0x00, 0x00,
  0x18, 0xfd, 0xff, 0xff, 0x5a, 0x00, 0x00, 0x00, 0x73, 0x65, 0x71, 0x75,
  0x65, 0x6e, 0x74, 0x69, 0x61, 0x6c, 0x5f, 0x31, 0x5f, 0x31, 0x2f, 0x64,
  0x65, 0x6e, 0x73, 0x65, 0x5f, 0x34, 0x5f, 0x31, 0x2f, 0x4d, 0x61, 0x74,
  0x4d, 0x75, 0x6c, 0x3b, 0x73, 0x65, 0x71, 0x75, 0x65, 0x6e, 0x74, 0x69,
  0x61, 0x6c, 0x5f, 0x31, 0x5f, 0x31, 0x2f, 0x64, 0x65, 0x6e, 0x73, 0x65,
  0x5f, 0x34, 0x5f, 0x31, 0x2f, 0x52, 0x65, 0x6c, 0x75, 0x3b, 0x73, 0x65,
  0x71, 0x75, 0x65, 0x6e, 0x74, 0x69, 0x61, 0x6c, 0x5f, 0x31, 0x5f, 0x31,
  0x2f, 0x64, 0x65, 0x6e, 0x73, 0x65, 0x5f, 0x34, 0x5f, 0x31, 0x2f, 0x41,
  0x64, 0x64, 0x00, 0x00, 0x02, 0x00, 0x00, 0x00, 0x01, 0x00, 0x00, 0x00,
  0x08, 0x00, 0x00, 0x00, 0xc6, 0xfd, 0xff, 0xff, 0x00, 0x00, 0x00, 0x01,
  0x14, 0x00, 0x00, 0x00, 0x1c, 0x00, 0x00, 0x00, 0x1c, 0x00, 0x00, 0x00,
  0x08, 0x00, 0x00, 0x00, 0x74, 0x00, 0x00, 0x00, 0x02, 0x00, 0x00, 0x00,
  0xff, 0xff, 0xff, 0xff, 0x10, 0x00, 0x00, 0x00, 0xb0, 0xfd, 0xff, 0xff,
  0x5a, 0x00, 0x00, 0x00, 0x73, 0x65, 0x71, 0x75, 0x65, 0x6e, 0x74, 0x69,
  0x61, 0x6c, 0x5f, 0x31, 0x5f, 0x31, 0x2f, 0x64, 0x65, 0x6e, 0x73, 0x65,
  0x5f, 0x33, 0x5f, 0x31, 0x2f, 0x4d, 0x61, 0x74, 0x4d, 0x75, 0x6c, 0x3b,
  0x73, 0x65, 0x71, 0x75, 0x65, 0x6e, 0x74, 0x69, 0x61, 0x6c, 0x5f, 0x31,
  0x5f, 0x31, 0x2f, 0x64, 0x65, 0x6e, 0x73, 0x65, 0x5f, 0x33, 0x5f, 0x31,
  0x2f, 0x52, 0x65, 0x6c, 0x75, 0x3b, 0x73, 0x65, 0x71, 0x75, 0x65, 0x6e,
  0x74, 0x69, 0x61, 0x6c, 0x5f, 0x31, 0x5f, 0x31, 0x2f, 0x64, 0x65, 0x6e,
  0x73, 0x65, 0x5f, 0x33, 0x5f, 0x31, 0x2f, 0x41, 0x64, 0x64, 0x00, 0x00,
  0x02, 0x00, 0x00, 0x00, 0x01, 0x00, 0x00, 0x00, 0x10, 0x00, 0x00, 0x00,
  0xb2, 0xfe, 0xff, 0xff, 0x00, 0x00, 0x00, 0x01, 0x10, 0x00, 0x00, 0x00,
  0x10, 0x00, 0x00, 0x00, 0x07, 0x00, 0x00, 0x00, 0x2c, 0x00, 0x00, 0x00,
  0x38, 0xfe, 0xff, 0xff, 0x1f, 0x00, 0x00, 0x00, 0x73, 0x65, 0x71, 0x75,
  0x65, 0x6e, 0x74, 0x69, 0x61, 0x6c, 0x5f, 0x31, 0x5f, 0x31, 0x2f, 0x64,
  0x65, 0x6e, 0x73, 0x65, 0x5f, 0x33, 0x5f, 0x31, 0x2f, 0x4d, 0x61, 0x74,
  0x4d, 0x75, 0x6c, 0x00, 0x02, 0x00, 0x00, 0x00, 0x10, 0x00, 0x00, 0x00,
  0x01, 0x00, 0x00, 0x00, 0xfe, 0xfe, 0xff, 0xff, 0x00, 0x00, 0x00, 0x01,
  0x10, 0x00, 0x00, 0x00, 0x10, 0x00, 0x00, 0x00, 0x06, 0x00, 0x00, 0x00,
  0x38, 0x00, 0x00, 0x00, 0x84, 0xfe, 0xff, 0xff, 0x2b, 0x00, 0x00, 0x00,
  0x73, 0x65, 0x71, 0x75, 0x65, 0x6e, 0x74, 0x69, 0x61, 0x6c, 0x5f, 0x31,
  0x5f, 0x31, 0x2f, 0x64, 0x65, 0x6e, 0x73, 0x65, 0x5f, 0x33, 0x5f, 0x31,
  0x2f, 0x41, 0x64, 0x64, 0x2f, 0x52, 0x65, 0x61, 0x64, 0x56, 0x61, 0x72,
  0x69, 0x61, 0x62, 0x6c, 0x65, 0x4f, 0x70, 0x00, 0x01, 0x00, 0x00, 0x00,
  0x10, 0x00, 0x00, 0x00, 0x52, 0xff, 0xff, 0xff, 0x00, 0x00, 0x00, 0x01,
  0x10, 0x00, 0x00, 0x00, 0x10, 0x00, 0x00, 0x00, 0x05, 0x00, 0x00, 0x00,
  0x1c, 0x00, 0x00, 0x00, 0xd8, 0xfe, 0xff, 0xff, 0x0f, 0x00, 0x00, 0x00,
  0x61, 0x72, 0x69, 0x74, 0x68, 0x2e, 0x63, 0x6f, 0x6e, 0x73, 0x74, 0x61,
  0x6e, 0x74, 0x33, 0x00, 0x01, 0x00, 0x00, 0x00, 0x08, 0x00, 0x00, 0x00,
  0x8a, 0xff, 0xff, 0xff, 0x00, 0x00, 0x00, 0x01, 0x10, 0x00, 0x00, 0x00,
  0x10, 0x00, 0x00, 0x00, 0x04, 0x00, 0x00, 0x00, 0x1c, 0x00, 0x00, 0x00,
  0x10, 0xff, 0xff, 0xff, 0x0f, 0x00, 0x00, 0x00, 0x61, 0x72, 0x69, 0x74,
  0x68, 0x2e, 0x63, 0x6f, 0x6e, 0x73, 0x74, 0x61, 0x6e, 0x74, 0x32, 0x00,
  0x01, 0x00, 0x00, 0x00, 0x04, 0x00, 0x00, 0x00, 0xc2, 0xff, 0xff, 0xff,
  0x00, 0x00, 0x00, 0x01, 0x10, 0x00, 0x00, 0x00, 0x10, 0x00, 0x00, 0x00,
  0x03, 0x00, 0x00, 0x00, 0x1c, 0x00, 0x00, 0x00, 0x48, 0xff, 0xff, 0xff,
  0x0f, 0x00, 0x00, 0x00, 0x61, 0x72, 0x69, 0x74, 0x68, 0x2e, 0x63, 0x6f,
  0x6e, 0x73, 0x74, 0x61, 0x6e, 0x74, 0x31, 0x00, 0x02, 0x00, 0x00, 0x00,
  0x08, 0x00, 0x00, 0x00, 0x10, 0x00, 0x00, 0x00, 0x00, 0x00, 0x16, 0x00,
  0x18, 0x00, 0x14, 0x00, 0x00, 0x00, 0x10, 0x00, 0x0c, 0x00, 0x08, 0x00,
  0x00, 0x00, 0x00, 0x00, 0x00, 0x00, 0x07, 0x00, 0x16, 0x00, 0x00, 0x00,
  0x00, 0x00, 0x00, 0x01, 0x10, 0x00, 0x00, 0x00, 0x10, 0x00, 0x00, 0x00,
  0x02, 0x00, 0x00, 0x00, 0x1c, 0x00, 0x00, 0x00, 0x9c, 0xff, 0xff, 0xff,
  0x0e, 0x00, 0x00, 0x00, 0x61, 0x72, 0x69, 0x74, 0x68, 0x2e, 0x63, 0x6f,
  0x6e, 0x73, 0x74, 0x61, 0x6e, 0x74, 0x00, 0x00, 0x02, 0x00, 0x00, 0x00,
  0x04, 0x00, 0x00, 0x00, 0x08, 0x00, 0x00, 0x00, 0x00, 0x00, 0x16, 0x00,
  0x1c, 0x00, 0x18, 0x00, 0x00, 0x00, 0x14, 0x00, 0x10, 0x00, 0x0c, 0x00,
  0x00, 0x00, 0x00, 0x00, 0x08, 0x00, 0x07, 0x00, 0x16, 0x00, 0x00, 0x00,
  0x00, 0x00, 0x00, 0x01, 0x14, 0x00, 0x00, 0x00, 0x20, 0x00, 0x00, 0x00,
  0x20, 0x00, 0x00, 0x00, 0x01, 0x00, 0x00, 0x00, 0x40, 0x00, 0x00, 0x00,
  0x02, 0x00, 0x00, 0x00, 0xff, 0xff, 0xff, 0xff, 0x01, 0x00, 0x00, 0x00,
  0x04, 0x00, 0x04, 0x00, 0x04, 0x00, 0x00, 0x00, 0x20, 0x00, 0x00, 0x00,
  0x73, 0x65, 0x72, 0x76, 0x69, 0x6e, 0x67, 0x5f, 0x64, 0x65, 0x66, 0x61,
  0x75, 0x6c, 0x74, 0x5f, 0x6b, 0x65, 0x72, 0x61, 0x73, 0x5f, 0x74, 0x65,
  0x6e, 0x73, 0x6f, 0x72, 0x5f, 0x34, 0x3a, 0x30, 0x00, 0x00, 0x00, 0x00,
  0x02, 0x00, 0x00, 0x00, 0x01, 0x00, 0x00, 0x00, 0x01, 0x00, 0x00, 0x00,
  0x02, 0x00, 0x00, 0x00, 0x20, 0x00, 0x00, 0x00, 0x04, 0x00, 0x00, 0x00,
  0xf4, 0xff, 0xff, 0xff, 0x19, 0x00, 0x00, 0x00, 0x00, 0x00, 0x00, 0x19,
  0x0c, 0x00, 0x0c, 0x00, 0x0b, 0x00, 0x00, 0x00, 0x00, 0x00, 0x04, 0x00,
  0x0c, 0x00, 0x00, 0x00, 0x09, 0x00, 0x00, 0x00, 0x00, 0x00, 0x00, 0x09
};
unsigned int eye_movement_model_tflite_len = 2904;
